25e98a0056faa5a65a5024b366d999ba476d3650
1f3367fa4210f37417cd55622b3872ababd2f06d
3ef2b7a928a2ef05017f28e4f563014ce5981081
db169a93f49a75b3152446bb06576b65c032e4be
941ce288959a0e29fa4b8006e3d82f5344dfdec9
35e0a4d1d8380654284b7e48cbc297b00b1409ec
ce6bc748ba6362ba2b2892a9b340b1190098602d
8a0f1a3ee266511b57fb2e51be5a4e0c1cabeddf
e32a996582648bd0190d9edecd85f5249f9f8fa6
0ec394a698efd80adcd79d5cfbfd37b8d49c2c5c
8b1d446daa9a4136fa6850ff657c683cba978b72
f8530462a349b8d22772a83db2a338867ee3b86c
ea5838934d73322b7ca337b31999b4e384040c04
e9e78f972a592be031d8658a7a369f8a36122923
99a25fc7933b88d5e16668bf6ba2d098e1754406
c512bbcc1d11936da8ace21366026045a5e76d1b
1ebcdf38887949def1a553ff3e45c98ed95a3cd0
2a6cc079ae47fb6d4dda872c7a754698dd7d722b
98e5adfc14461416d130d3c58009d9f2e44e4dc1
c3b52294e6de2aa5511b90944a62457bca90254f
3cc6206c34606d96d3d6d803df8b5f280698e3af
4b1eb5121ffcaa7f92d34a10c6096233cad968f1
c2b47b8df7741fd457b37611474f3c5ac16fd70a
5b622e672e49e50c33fc64cd06b05ce76e1de460
76cf1f33e7319fe74c94ac92f9814094ee8cc84b
9a0b9bb2f25aa1bb2fc2b8ebee98227de99aaa2a
8e8bf7bc6aa6f583336c2fda280b6cea0aed5612
f9a4f28a4fc4ee453a92a9abbe36e26224d17749
3aa799edd0fdbf77ff499f2cf8ba3412606c4ce2
ee8d688e2ba558f3bb8ac225113740be5f335417
61b8d20962d00b7df117011c52f97cbb9c76a669
1cf79d3da8be9c6ff7681ba5d4239c2792019a78
29e2f56b5dea40ce61bdb983b2f85b6e798914a1
9e1deb757e4f76e3b1a9afd9e44ca391b0f22e14
5bfa301e1e59a9b1a7b62a800b54852337c97416
65c03e6fc524eb2868abedffd8a4613d78abc288
a18a42e77545afcacd6a2b8d9fc16191b87454df
d4c73ce13f5b5a0fe0319f1f352ff602f0ace8e3
3050d197d6bc9ef128944a70210f42d2430b3000
d3436638738ace8f101af7bdee2eae1bc38e9b29
7c2a7b776d63d0aa67fc6f885cf6f35dd795b0c5
43e53eb8433c332666a222bff8e49aa03a470d0d
60c929c85e2dcf7b317c8625c58c371a7c16a41d
f093ff8f937dcb5139b047b1e418a5d816ba30ed
63b7dc0b4850a26658bb35ffcc76a2c084949f04
cb8fea612c4f1c74b4b5c8d03ba9e294116958c3
b525a0b5ba3867f69e90c41a3a985dc45640cb5b
d0cb8fc115a2aab57426dfdc7b9f5fce783e87b4
40b03b14733cb24f81e6dbd74dc1b3534b9efe20
69dce0500f49f9a53cbd7b0b7f540aa0c34dc499
c7b616c2615acbcad41448a2aad73250bf7bef6c
20dac32835aaa14bdfd81f76c6ebd6095ebd1890
186747b3cac8f21833a1547045da8b7088c60439
b1e18745fae14f91727c639704f072e01f8d50fa
42a71183701301173c8da4dbc433e477715b2f9c
33b579698dd46cd414a565020d2bbd94f3cc8bd9
e1e339a8183124a4b23adea316106bf7d6ba27fb
ccb6f953b31cd11f6c645cd6a6cfb569f1c2a658
738b9f870f9ef2885fda9c83cfa13d1b1a0f0173
0af9ee43124d02d4065aec8a94798263aa741d9b
6bca3dee615314d4710557c8d64fabbe33d777a8
d47769479e6b65cd45d4b468b5c7d7d036a1938c
55cc448c13b9d95841810bad16c50f21594527b9
